/* Copyright 2019 The TensorFlow Authors. All Rights Reserved.

Licensed under the Apache License, Version 2.0 (the "License");
you may not use this file except in compliance with the License.
You may obtain a copy of the License at

    http://www.apache.org/licenses/LICENSE-2.0

Unless required by applicable law or agreed to in writing, software
distributed under the License is distributed on an "AS IS" BASIS,
WITHOUT WARRANTIES OR CONDITIONS OF ANY KIND, either express or implied.
See the License for the specific language governing permissions and
limitations under the License.
==============================================================================*/

// Automatically created from a TensorFlow Lite flatbuffer using the command:
// xxd -i magic_wand_model.tflite > magic_wand_model_data.cc
// See the README for a full description of the creation process.

#include "tensorflow/lite/micro/examples/magic_wand/magic_wand_model_data.h"

// Keep model aligned to 8 bytes to guarantee aligned 64-bit accesses.
alignas(8) const unsigned char g_magic_wand_model_data[] = {
  0x1c, 0x00, 0x00, 0x00, 0x54, 0x46, 0x4c, 0x33, 0x00, 0x00, 0x12, 0x00,
  0x1c, 0x00, 0x04, 0x00, 0x08, 0x00, 0x0c, 0x00, 0x10, 0x00, 0x14, 0x00,
  0x00, 0x00, 0x18, 0x00, 0x12, 0x00, 0x00, 0x00, 0x03, 0x00, 0x00, 0x00,
  0xb4, 0x07, 0x00, 0x00, 0x10, 0x00, 0x00, 0x00, 0x1c, 0x00, 0x00, 0x00,
  0x2c, 0x00, 0x00, 0x00, 0x0c, 0x00, 0x00, 0x00, 0x01, 0x00, 0x00, 0x00,
  0xec, 0x00, 0x00, 0x00, 0x01, 0x00, 0x00, 0x00, 0xb4, 0x00, 0x00, 0x00,
  0x0f, 0x00, 0x00, 0x00, 0x54, 0x4f, 0x43, 0x4f, 0x20, 0x43, 0x6f, 0x6e,
  0x76, 0x65, 0x72, 0x74, 0x65, 0x64, 0x2e, 0x00, 0x0e, 0x00, 0x00, 0x00,
  0x88, 0x00, 0x00, 0x00, 0x7c, 0x00, 0x00, 0x00, 0x6c, 0x00, 0x00, 0x00,
  0x64, 0x00, 0x00, 0x00, 0x58, 0x00, 0x00, 0x00, 0x50, 0x00, 0x00, 0x00,
  0x48, 0x00, 0x00, 0x00, 0x40, 0x00, 0x00, 0x00, 0x38, 0x00, 0x00, 0x00,
  0x30, 0x00, 0x00, 0x00, 0x28, 0x00, 0x00, 0x00, 0x1c, 0x00, 0x00, 0x00,
  0x10, 0x00, 0x00, 0x00, 0x04, 0x00, 0x00, 0x00, 0xbe, 0xff, 0xff, 0xff,
  0x50, 0x00, 0x00, 0x00, 0xc6, 0xff, 0xff, 0xff, 0x24, 0x01, 0x00, 0x00,
  0xce, 0xff, 0xff, 0xff, 0x80, 0x01, 0x00, 0x00, 0x30, 0xf9, 0xff, 0xff,
  0x34, 0xf9, 0xff, 0xff, 0x38, 0xf9, 0xff, 0xff, 0x3c, 0xf9, 0xff, 0xff,
  0x40, 0xf9, 0xff, 0xff, 0x44, 0xf9, 0xff, 0xff, 0xee, 0xff, 0xff, 0xff,
  0xf4, 0x03, 0x00, 0x00, 0x50, 0xf9, 0xff, 0xff, 0x48, 0xfb, 0xff, 0xff,
  0x00, 0x00, 0x06, 0x00, 0x08, 0x00, 0x04, 0x00, 0x06, 0x00, 0x00, 0x00,
  0x30, 0x05, 0x00, 0x00, 0x68, 0xf9, 0xff, 0xff, 0x06, 0x00, 0x00, 0x00,
  0x31, 0x2e, 0x31, 0x34, 0x2e, 0x30, 0x00, 0x00, 0x00, 0xfc, 0xff, 0xff,
  0x08, 0x00, 0x00, 0x00, 0x0d, 0x00, 0x00, 0x00, 0x13, 0x00, 0x00, 0x00,
  0x6d, 0x69, 0x6e, 0x5f, 0x72, 0x75, 0x6e, 0x74, 0x69, 0x6d, 0x65, 0x5f,
  0x76, 0x65, 0x72, 0x73, 0x69, 0x6f, 0x6e, 0x00, 0x0c, 0x00, 0x14, 0x00,
  0x04, 0x00, 0x08, 0x00, 0x0c, 0x00, 0x10, 0x00, 0x0c, 0x00, 0x00, 0x00,
  0x20, 0x00, 0x00, 0x00, 0x14, 0x00, 0x00, 0x00, 0x08, 0x00, 0x00, 0x00,
  0xe4, 0x04, 0x00, 0x00, 0x01, 0x00, 0x00, 0x00, 0x00, 0x00, 0x00, 0x00,
  0x01, 0x00, 0x00, 0x00, 0x01, 0x00, 0x00, 0x00, 0x0c, 0x00, 0x00, 0x00,
  0x00, 0x02, 0x00, 0x00, 0x74, 0x03, 0x00, 0x00, 0xfc, 0x00, 0x00, 0x00,
  0x7c, 0x00, 0x00, 0x00, 0x20, 0x00, 0x00, 0x00, 0x38, 0x01, 0x00, 0x00,
  0xc4, 0x03, 0x00, 0x00, 0x38, 0x04, 0x00, 0x00, 0x7c, 0x01, 0x00, 0x00,
  0xdc, 0x02, 0x00, 0x00, 0x0c, 0x02, 0x00, 0x00, 0x70, 0x02, 0x00, 0x00,
  0x62, 0xfc, 0xff, 0xff, 0x10, 0x00, 0x00, 0x00, 0x0c, 0x00, 0x00, 0x00,
  0x10, 0x00, 0x00, 0x00, 0x34, 0x00, 0x00, 0x00, 0x01, 0x00, 0x00, 0x00,
  0x03, 0x00, 0x00, 0x00, 0x23, 0x00, 0x00, 0x00, 0x75, 0x6e, 0x73, 0x75,
  0x70, 0x65, 0x72, 0x76, 0x69, 0x73, 0x65, 0x64, 0x2f, 0x72, 0x65, 0x64,
  0x75, 0x63, 0x65, 0x5f, 0x73, 0x74, 0x64, 0x2f, 0x4d, 0x61, 0x74, 0x4d,
  0x75, 0x6c, 0x5f, 0x62, 0x69, 0x61, 0x73, 0x00, 0x44, 0xfa, 0xff, 0xff,
  0x0c, 0x00, 0x00, 0x00, 0x00, 0x00, 0x00, 0x00, 0x00, 0x00, 0x00, 0x00,
  0x00, 0x00, 0x00, 0x00, 0xba, 0xfc, 0xff, 0xff, 0x10, 0x00, 0x00, 0x00,
  0x0b, 0x00, 0x00, 0x00, 0x14, 0x00, 0x00, 0x00, 0x40, 0x00, 0x00, 0x00,
  0x02, 0x00, 0x00, 0x00, 0x03, 0x00, 0x00, 0x00, 0x03, 0x00, 0x00, 0x00,
  0x2a, 0x00, 0x00, 0x00, 0x75, 0x6e, 0x73, 0x75, 0x70, 0x65, 0x72, 0x76,
  0x69, 0x73, 0x65, 0x64, 0x2f, 0x72, 0x65, 0x64, 0x75, 0x63, 0x65, 0x5f,
  0x73, 0x74, 0x64, 0x2f, 0x4d, 0x61, 0x74, 0x4d, 0x75, 0x6c, 0x2f, 0x62,
  0x2f, 0x74, 0x72, 0x61, 0x6e, 0x73, 0x70, 0x6f, 0x73, 0x65, 0x00, 0x00,
  0xa8, 0xfa, 0xff, 0xff, 0x24, 0x00, 0x00, 0x00, 0x00, 0x00, 0x00, 0x00,
  0x00, 0x00, 0x00, 0x00, 0x00, 0x00, 0x00, 0x00, 0x00, 0x00, 0x00, 0x00,
  0x00, 0x00, 0x00, 0x00, 0x6f, 0x12, 0x83, 0x3a, 0x00, 0x00, 0x00, 0x00,
  0x6f, 0x12, 0x83, 0x3a, 0x00, 0x00, 0x00, 0x00, 0x36, 0xfd, 0xff, 0xff,
  0x10, 0x00, 0x00, 0x00, 0x0a, 0x00, 0x00, 0x00, 0x14, 0x00, 0x00, 0x00,
  0x34, 0x00, 0x00, 0x00, 0x02, 0x00, 0x00, 0x00, 0x01, 0x00, 0x00, 0x00,
  0x03, 0x00, 0x00, 0x00, 0x1e, 0x00, 0x00, 0x00, 0x75, 0x6e, 0x73, 0x75,
  0x70, 0x65, 0x72, 0x76, 0x69, 0x73, 0x65, 0x64, 0x2f, 0x72, 0x65, 0x64,
  0x75, 0x63, 0x65, 0x5f, 0x73, 0x74, 0x64, 0x2f, 0x4d, 0x61, 0x74, 0x4d,
  0x75, 0x6c, 0x00, 0x00, 0x18, 0xfb, 0xff, 0xff, 0x7e, 0xfd, 0xff, 0xff,
  0x10, 0x00, 0x00, 0x00, 0x09, 0x00, 0x00, 0x00, 0x14, 0x00, 0x00, 0x00,
  0x3c, 0x00, 0x00, 0x00, 0x02, 0x00, 0x00, 0x00, 0x01, 0x00, 0x00, 0x00,
  0x03, 0x00, 0x00, 0x00, 0x27, 0x00, 0x00, 0x00, 0x75, 0x6e, 0x73, 0x75,
  0x70, 0x65, 0x72, 0x76, 0x69, 0x73, 0x65, 0x64, 0x2f, 0x72, 0x65, 0x64,
  0x75, 0x63, 0x65, 0x5f, 0x73, 0x74, 0x64, 0x2f, 0x72, 0x65, 0x64, 0x75,
  0x63, 0x65, 0x5f, 0x73, 0x74, 0x64, 0x2f, 0x53, 0x71, 0x72, 0x74, 0x00,
  0x68, 0xfb, 0xff, 0xff, 0xce, 0xfd, 0xff, 0xff, 0x10, 0x00, 0x00, 0x00,
  0x08, 0x00, 0x00, 0x00, 0x14, 0x00, 0x00, 0x00, 0x50, 0x00, 0x00, 0x00,
  0x02, 0x00, 0x00, 0x00, 0x01, 0x00, 0x00, 0x00, 0x03, 0x00, 0x00, 0x00,
  0x39, 0x00, 0x00, 0x00, 0x75, 0x6e, 0x73, 0x75, 0x70, 0x65, 0x72, 0x76,
  0x69, 0x73, 0x65, 0x64, 0x2f, 0x72, 0x65, 0x64, 0x75, 0x63, 0x65, 0x5f,
  0x73, 0x74, 0x64, 0x2f, 0x72, 0x65, 0x64, 0x75, 0x63, 0x65, 0x5f, 0x73,
  0x74, 0x64, 0x2f, 0x72, 0x65, 0x64, 0x75, 0x63, 0x65, 0x5f, 0x76, 0x61,
  0x72, 0x69, 0x61, 0x6e, 0x63, 0x65, 0x2f, 0x4d, 0x65, 0x61, 0x6e, 0x5f,
  0x31, 0x00, 0x00, 0x00, 0xcc, 0xfb, 0xff, 0xff, 0x32, 0xfe, 0xff, 0xff,
  0x10, 0x00, 0x00, 0x00, 0x07, 0x00, 0x00, 0x00, 0x14, 0x00, 0x00, 0x00,
  0x20, 0x00, 0x00, 0x00, 0x02, 0x00, 0x00, 0x00, 0x01, 0x00, 0x00, 0x00,
  0x03, 0x00, 0x00, 0x00, 0x08, 0x00, 0x00, 0x00, 0x49, 0x64, 0x65, 0x6e,
  0x74, 0x69, 0x74, 0x79, 0x00, 0x00, 0x00, 0x00, 0x00, 0xfc, 0xff, 0xff,
  0x66, 0xfe, 0xff, 0xff, 0x10, 0x00, 0x00, 0x00, 0x06, 0x00, 0x00, 0x00,
  0x18, 0x00, 0x00, 0x00, 0x54, 0x00, 0x00, 0x00, 0x03, 0x00, 0x00, 0x00,
  0x01, 0x00, 0x00, 0x00, 0x14, 0x00, 0x00, 0x00, 0x03, 0x00, 0x00, 0x00,
  0x39, 0x00, 0x00, 0x00, 0x75, 0x6e, 0x73, 0x75, 0x70, 0x65, 0x72, 0x76,
  0x69, 0x73, 0x65, 0x64, 0x2f, 0x72, 0x65, 0x64, 0x75, 0x63, 0x65, 0x5f,
  0x73, 0x74, 0x64, 0x2f, 0x72, 0x65, 0x64, 0x75, 0x63, 0x65, 0x5f, 0x73,
  0x74, 0x64, 0x2f, 0x72, 0x65, 0x64, 0x75, 0x63, 0x65, 0x5f, 0x76, 0x61,
  0x72, 0x69, 0x61, 0x6e, 0x63, 0x65, 0x2f, 0x53, 0x71, 0x75, 0x61, 0x72,
  0x65, 0x00, 0x00, 0x00, 0x68, 0xfc, 0xff, 0xff, 0xce, 0xfe, 0xff, 0xff,
  0x10, 0x00, 0x00, 0x00, 0x05, 0x00, 0x00, 0x00, 0x18, 0x00, 0x00, 0x00,
  0x50, 0x00, 0x00, 0x00, 0x03, 0x00, 0x00, 0x00, 0x01, 0x00, 0x00, 0x00,
  0x14, 0x00, 0x00, 0x00, 0x03, 0x00, 0x00, 0x00, 0x36, 0x00, 0x00, 0x00,
  0x75, 0x6e, 0x73, 0x75, 0x70, 0x65, 0x72, 0x76, 0x69, 0x73, 0x65, 0x64,
  0x2f, 0x72, 0x65, 0x64, 0x75, 0x63, 0x65, 0x5f, 0x73, 0x74, 0x64, 0x2f,
  0x72, 0x65, 0x64, 0x75, 0x63, 0x65, 0x5f, 0x73, 0x74, 0x64, 0x2f, 0x72,
  0x65, 0x64, 0x75, 0x63, 0x65, 0x5f, 0x76, 0x61, 0x72, 0x69, 0x61, 0x6e,
  0x63, 0x65, 0x2f, 0x73, 0x75, 0x62, 0x00, 0x00, 0xcc, 0xfc, 0xff, 0xff,
  0xba, 0xfe, 0xff, 0xff, 0x00, 0x00, 0x00, 0x02, 0x10, 0x00, 0x00, 0x00,
  0x04, 0x00, 0x00, 0x00, 0x0c, 0x00, 0x00, 0x00, 0x58, 0x00, 0x00, 0x00,
  0x00, 0x00, 0x00, 0x00, 0x4b, 0x00, 0x00, 0x00, 0x75, 0x6e, 0x73, 0x75,
  0x70, 0x65, 0x72, 0x76, 0x69, 0x73, 0x65, 0x64, 0x2f, 0x72, 0x65, 0x64,
  0x75, 0x63, 0x65, 0x5f, 0x73, 0x74, 0x64, 0x2f, 0x72, 0x65, 0x64, 0x75,
  0x63, 0x65, 0x5f, 0x73, 0x74, 0x64, 0x2f, 0x72, 0x65, 0x64, 0x75, 0x63,
  0x65, 0x5f, 0x76, 0x61, 0x72, 0x69, 0x61, 0x6e, 0x63, 0x65, 0x2f, 0x4d,
  0x65, 0x61, 0x6e, 0x5f, 0x31, 0x2f, 0x72, 0x65, 0x64, 0x75, 0x63, 0x74,
  0x69, 0x6f, 0x6e, 0x5f, 0x69, 0x6e, 0x64, 0x69, 0x63, 0x65, 0x73, 0x00,
  0x3c, 0xfd, 0xff, 0xff, 0x04, 0x00, 0x00, 0x00, 0x01, 0x00, 0x00, 0x00,
  0xaa, 0xff, 0xff, 0xff, 0x10, 0x00, 0x00, 0x00, 0x03, 0x00, 0x00, 0x00,
  0x18, 0x00, 0x00, 0x00, 0x28, 0x00, 0x00, 0x00, 0x03, 0x00, 0x00, 0x00,
  0x01, 0x00, 0x00, 0x00, 0x14, 0x00, 0x00, 0x00, 0x03, 0x00, 0x00, 0x00,
  0x07, 0x00, 0x00, 0x00, 0x69, 0x6e, 0x70, 0x75, 0x74, 0x5f, 0x39, 0x00,
  0x08, 0x00, 0x0c, 0x00, 0x04, 0x00, 0x08, 0x00, 0x08, 0x00, 0x00, 0x00,
  0x10, 0x00, 0x00, 0x00, 0x04, 0x00, 0x00, 0x00, 0x01, 0x00, 0x00, 0x00,
  0x00, 0x00, 0x7f, 0x43, 0x01, 0x00, 0x00, 0x00, 0x00, 0x00, 0x00, 0x00,
  0x00, 0x00, 0x0e, 0x00, 0x14, 0x00, 0x04, 0x00, 0x00, 0x00, 0x08, 0x00,
  0x0c, 0x00, 0x10, 0x00, 0x0e, 0x00, 0x00, 0x00, 0x10, 0x00, 0x00, 0x00,
  0x02, 0x00, 0x00, 0x00, 0x18, 0x00, 0x00, 0x00, 0x54, 0x00, 0x00, 0x00,
  0x03, 0x00, 0x00, 0x00, 0x01, 0x00, 0x00, 0x00, 0x01, 0x00, 0x00, 0x00,
  0x03, 0x00, 0x00, 0x00, 0x37, 0x00, 0x00, 0x00, 0x75, 0x6e, 0x73, 0x75,
  0x70, 0x65, 0x72, 0x76, 0x69, 0x73, 0x65, 0x64, 0x2f, 0x72, 0x65, 0x64,
  0x75, 0x63, 0x65, 0x5f, 0x73, 0x74, 0x64, 0x2f, 0x72, 0x65, 0x64, 0x75,
  0x63, 0x65, 0x5f, 0x73, 0x74, 0x64, 0x2f, 0x72, 0x65, 0x64, 0x75, 0x63,
  0x65, 0x5f, 0x76, 0x61, 0x72, 0x69, 0x61, 0x6e, 0x63, 0x65, 0x2f, 0x4d,
  0x65, 0x61, 0x6e, 0x00, 0x04, 0x00, 0x06, 0x00, 0x04, 0x00, 0x00, 0x00,
  0x00, 0x00, 0x0e, 0x00, 0x18, 0x00, 0x08, 0x00, 0x07, 0x00, 0x0c, 0x00,
  0x10, 0x00, 0x14, 0x00, 0x0e, 0x00, 0x00, 0x00, 0x00, 0x00, 0x00, 0x02,
  0x10, 0x00, 0x00, 0x00, 0x01, 0x00, 0x00, 0x00, 0x0c, 0x00, 0x00, 0x00,
  0x58, 0x00, 0x00, 0x00, 0x00, 0x00, 0x00, 0x00, 0x49, 0x00, 0x00, 0x00,
  0x75, 0x6e, 0x73, 0x75, 0x70, 0x65, 0x72, 0x76, 0x69, 0x73, 0x65, 0x64,
  0x2f, 0x72, 0x65, 0x64, 0x75, 0x63, 0x65, 0x5f, 0x73, 0x74, 0x64, 0x2f,
  0x72, 0x65, 0x64, 0x75, 0x63, 0x65, 0x5f, 0x73, 0x74, 0x64, 0x2f, 0x72,
  0x65, 0x64, 0x75, 0x63, 0x65, 0x5f, 0x76, 0x61, 0x72, 0x69, 0x61, 0x6e,
  0x63, 0x65, 0x2f, 0x4d, 0x65, 0x61, 0x6e, 0x2f, 0x72, 0x65, 0x64, 0x75,
  0x63, 0x74, 0x69, 0x6f, 0x6e, 0x5f, 0x69, 0x6e, 0x64, 0x69, 0x63, 0x65,
  0x73, 0x00, 0x00, 0x00, 0x90, 0xfe, 0xff, 0xff, 0x04, 0x00, 0x00, 0x00,
  0x01, 0x00, 0x00, 0x00, 0x07, 0x00, 0x00, 0x00, 0x7c, 0x01, 0x00, 0x00,
  0x28, 0x01, 0x00, 0x00, 0xfc, 0x00, 0x00, 0x00, 0xac, 0x00, 0x00, 0x00,
  0x80, 0x00, 0x00, 0x00, 0x44, 0x00, 0x00, 0x00, 0x04, 0x00, 0x00, 0x00,
  0x2c, 0xff, 0xff, 0xff, 0x01, 0x00, 0x00, 0x00, 0x0c, 0x00, 0x00, 0x00,
  0x10, 0x00, 0x00, 0x00, 0x14, 0x00, 0x00, 0x00, 0x01, 0x00, 0x00, 0x00,
  0x02, 0x00, 0x00, 0x00, 0x01, 0x00, 0x00, 0x00, 0x00, 0x00, 0x00, 0x00,
  0x00, 0x00, 0x00, 0x00, 0x14, 0x00, 0x18, 0x00, 0x00, 0x00, 0x08, 0x00,
  0x0c, 0x00, 0x07, 0x00, 0x10, 0x00, 0x00, 0x00, 0x00, 0x00, 0x14, 0x00,
  0x14, 0x00, 0x00, 0x00, 0x00, 0x00, 0x00, 0x08, 0x10, 0x00, 0x00, 0x00,
  0x1c, 0x00, 0x00, 0x00, 0x24, 0x00, 0x00, 0x00, 0x1c, 0x00, 0x00, 0x00,
  0x03, 0x00, 0x00, 0x00, 0x05, 0x00, 0x00, 0x00, 0x03, 0x00, 0x00, 0x00,
  0x04, 0x00, 0x00, 0x00, 0x01, 0x00, 0x00, 0x00, 0x02, 0x00, 0x00, 0x00,
  0x00, 0x00, 0x00, 0x00, 0x2c, 0xff, 0xff, 0xff, 0xa0, 0xff, 0xff, 0xff,
  0x04, 0x00, 0x00, 0x00, 0x0c, 0x00, 0x00, 0x00, 0x10, 0x00, 0x00, 0x00,
  0x14, 0x00, 0x00, 0x00, 0x01, 0x00, 0x00, 0x00, 0x08, 0x00, 0x00, 0x00,
  0x01, 0x00, 0x00, 0x00, 0x05, 0x00, 0x00, 0x00, 0x00, 0x00, 0x00, 0x00,
  0x50, 0xff, 0xff, 0xff, 0x00, 0x00, 0x00, 0x1b, 0x02, 0x00, 0x00, 0x00,
  0x10, 0x00, 0x00, 0x00, 0x18, 0x00, 0x00, 0x00, 0x20, 0x00, 0x00, 0x00,
  0x18, 0x00, 0x00, 0x00, 0x02, 0x00, 0x00, 0x00, 0x0a, 0x00, 0x00, 0x00,
  0x09, 0x00, 0x00, 0x00, 0x01, 0x00, 0x00, 0x00, 0x08, 0x00, 0x00, 0x00,
  0x00, 0x00, 0x00, 0x00, 0x8c, 0xff, 0xff, 0xff, 0x14, 0x00, 0x14, 0x00,
  0x04, 0x00, 0x08, 0x00, 0x0c, 0x00, 0x00, 0x00, 0x00, 0x00, 0x00, 0x00,
  0x00, 0x00, 0x10, 0x00, 0x14, 0x00, 0x00, 0x00, 0x05, 0x00, 0x00, 0x00,
  0x0c, 0x00, 0x00, 0x00, 0x10, 0x00, 0x00, 0x00, 0x14, 0x00, 0x00, 0x00,
  0x01, 0x00, 0x00, 0x00, 0x0b, 0x00, 0x00, 0x00, 0x01, 0x00, 0x00, 0x00,
  0x0a, 0x00, 0x00, 0x00, 0x00, 0x00, 0x00, 0x00, 0xc4, 0xff, 0xff, 0xff,
  0x00, 0x00, 0x00, 0x1c, 0x03, 0x00, 0x00, 0x00, 0x10, 0x00, 0x00, 0x00,
  0x18, 0x00, 0x00, 0x00, 0x24, 0x00, 0x00, 0x00, 0x18, 0x00, 0x00, 0x00,
  0x02, 0x00, 0x00, 0x00, 0x01, 0x00, 0x00, 0x00, 0x06, 0x00, 0x00, 0x00,
  0x01, 0x00, 0x00, 0x00, 0x0b, 0x00, 0x00, 0x00, 0x00, 0x00, 0x00, 0x00,
  0x04, 0x00, 0x04, 0x00, 0x04, 0x00, 0x00, 0x00, 0x14, 0x00, 0x1c, 0x00,
  0x08, 0x00, 0x0c, 0x00, 0x10, 0x00, 0x07, 0x00, 0x14, 0x00, 0x00, 0x00,
  0x00, 0x00, 0x18, 0x00, 0x14, 0x00, 0x00, 0x00, 0x00, 0x00, 0x00, 0x1b,
  0x02, 0x00, 0x00, 0x00, 0x10, 0x00, 0x00, 0x00, 0x18, 0x00, 0x00, 0x00,
  0x20, 0x00, 0x00, 0x00, 0x18, 0x00, 0x00, 0x00, 0x02, 0x00, 0x00, 0x00,
  0x01, 0x00, 0x00, 0x00, 0x07, 0x00, 0x00, 0x00, 0x01, 0x00, 0x00, 0x00,
  0x06, 0x00, 0x00, 0x00, 0x00, 0x00, 0x00, 0x00, 0xaa, 0xff, 0xff, 0xff,
  0x00, 0x00, 0x00, 0x01, 0x06, 0x00, 0x00, 0x00, 0x20, 0x00, 0x00, 0x00,
  0x14, 0x00, 0x00, 0x00, 0x28, 0x00, 0x00, 0x00, 0x38, 0x00, 0x00, 0x00,
  0x18, 0x00, 0x00, 0x00, 0x24, 0x00, 0x00, 0x00, 0xce, 0xff, 0xff, 0xff,
  0x00, 0x00, 0x00, 0x1c, 0xd6, 0xff, 0xff, 0xff, 0x00, 0x00, 0x00, 0x09,
  0xde, 0xff, 0xff, 0xff, 0x00, 0x00, 0x00, 0x4b, 0xe6, 0xff, 0xff, 0xff,
  0x00, 0x00, 0x00, 0x28, 0xfa, 0xff, 0xff, 0xff, 0x00, 0x5c, 0x06, 0x00,
  0x06, 0x00, 0x05, 0x00, 0x06, 0x00, 0x00, 0x00, 0x00, 0x29, 0x06, 0x00,
  0x08, 0x00, 0x07, 0x00, 0x06, 0x00, 0x00, 0x00, 0x00, 0x00, 0x00, 0x28
};
unsigned int model_tflite_len = 2100;
